BEC
D0A
E99
A13
5D5
58E
11F
0CA
F55
26E
629
0B6
3C2
B4E
A3E
5BC
23D
AD3
108
17F
CC3
5B2
9BE
F7E
D57
3F9
2DC
260
9FA
19B
F33
9DD
4C7
28C
DD8
3F7
AF3
5D3
EE6
9F8
204
FF8
EC0
D66
9AE
B76
07E
5BD
CAB
FA6
EF1
33E
06B
A73
F09
C49
E72
3C1
A1C
D2B
1C0
BD7
2A5
B05
BB1
1AE
22B
34B
B1D
367
60E
069
1A6
24B
0B1
F15
EDD
E34
626
675
F0A
30A
487
F6D
CF7
5CB
DA6
45F
9CA
284
C98
15D
1A2
149
F64
FB5
331
449
25B
262
52A
AFB
A47
180
B41
F78
4C2
AC9
C96
0DC
B5D
985
B5F
A06
B02
31A
A1A
CAA
C9A
1DE
F94
ECC
3E4
3DF
3BE
A4C
5F2
65C
